3
e
b
1
f
7
f
e
7
1
5
8
3
1
b
4
c
5
6
d
f
c
9
4
6
1
a
0
d
e
8
4
2
0
a
4
2
3
9
9
4
e
c
9
f
2
6
7
7
3
a
b
d
e
1
2
5
5
d
5
9
1
1
d
9
6
6
5
2
e
a
0
d
f
0
f
5
6
b
e
e
5
3
7
4
e
d
e
d
6
f
f
b
4
1
b
9
9
5
b
4
2
7
4
9
3
7
e
3
3
6
1
b
3
4
6
c
a
6
6
8
2
7
9
7
2
9
0
1
c
0
6
c
6
5
b
b
f
6
5
d
a
e
e
8
9
e
d
2
3
b
7
2
b
9
6
0
7
b
8
5
2
2
3
e
8
6
6
7
d
b
6
6
a
2
6
2
5
5
9
3
6
4
5
b
8
c
1
b
6
d
e
c
c
4
6
7
8
a
b
7
f
3
3
b
6
5
a
1
7
a
e
e
3
1
b
8
a
e
8
8
7
7
4
d
7
f
1
d
c
5
5
d
8
9
1
f
f
f
9
9
e
2
4
5
9
e
2
0
7
e
c
3
9
2
9
9
8
c
4
3
f
7
a
f
6
2
1
c
8
4
5
c
e
e
e
9
e
1
e
4
3
0
3
1
d
0
8
5
e
1
1
9
f
a
3
8
e
2
e
9
f
0
3
f
0
b
d
b
a
b
a
e
9
b
7
1
3
4
2
d
2
3
b
e
0
a
b
5
9
d
8
b
9
d
0
8
5
d
e
d
1
2
7
1
5
5
1
c
6
f
d
c
f
5
1
e
7
0
0
9
e
e
e
d
2
0
a
5
5
e
e
9
4
d
0
a
c
3
c
a
9
8
a
9
f
0
5
4
3
b
5
f
c
3
e
5
9
f
7
f
7
f
8
a
2
8
1
0
2
a
1
4
5
9
b
0
6
2
b
c
6
f
c
0
f
e
2
a
1
d
1
4
6
9
5
d
2
c
9
0
b
8
c
f
c
b
0
4
1
2
c
d
d
1
4
f
a
c
c
0
d
d
4
1
b
b
d
8
f
8
5
8
f
7
7
f
e
3
2
9
f
2
e
a
a
1
c
8
5
a
e
4
3
1
d
0
4
c
2
4
6
a
0
b
e
8
9
a
b
d
d
7
0
f
1
c
1
b
f
0
0
2
f
8
7
6
7
9
b
0
c
c
e
a
8
0
b
5
6
0
4
d
f
c
e
3
9
2
7
c
9
9
5
b
1
6
e
8
d
f
5
4
d
3
f
e
d
c
c
7
f
7
5
a
b
b
5
9
2
b
d
e
c
7
5
b
2
a
f
b
6
9
d
b
4
1
1
4
4
d
6
3
2
b
4
6
2
6
b
5
b
e
8
8
d
c
e
2
c
4
2
6
c
b
9
6
9
7
d
c
b
3
4
a
f
f
2
a
e
f
1
7
7
0
7
d
5
1
9
d
e
b
d
0
8
8
4
2
7
e
f
1
3
3
0
2
d
8
0
b
4
e
5
0
3
3
3
7
9
5
f
a
b
b
0
5
d
e
7
1
c
0
a
f
d
8
4
5
3
0
9
4
a
a
e
e
e
b
4
9
c
b
0
c
f
f
6
5
f
a
6
6
d
f
9
b
e
e
c
c
a
e
8
9
d
8
5
e
f
7
c
0
a
f
a
3
1
4
c
b
a
2
8
4
f
5
5
4
6
b
4
b
2
1
5
6
c
a
6
8
d
e
d
9
0
a
8
a
0
b
e
4
b
a
3
3
f
4
b
3
3
f
5
2
6
3
7
1
2
5
b
2
a
2
a
0
b
2
c
9
1
2
7
b
3
2
0
f
8
8
1
a
4
6
d
4
9
4
4
b
d
a
5
b
7
7
3
e
e
6
6
c
f
c
d
8
4
a
3
3
7
4
0
7
9
7
d
0
1
8
f
9
d
e
7
6
2
8
7
4
5
c
d
2
d
4
e
6
f
6
c
b
a
3
2
6
4
3
3
8
a
c
8
7
0
5
2
3
5
0
a
d
9
d
4
7
7
d
7
e
a
c
8
c
e
a
9
b
4
8
a
4
d
6
3
6
f
8
5
e
f
9
7
d
7
2
6
f
e
1
6
3
a
7
3
2
a
6
8
5
5
5
7
3
7
f
b
c
f
e
b
7
c
b
0
f
b
c
a
e
d
d
1
4
f
9
5
9
3
6
0
d
b
1
8
6
2
e
9
b
a
e
2
4
3
3
d
f
c
5
e
c
5
3
5
0
f
a
b
a
8
e
c
a
4
9
c
6
b
b
0
4
1
4
4
0
f
8
c
0
0
0
9
6
0
6
1
4
8
f
7
b
a
c
0
d
e
d
c
1
e
e
9
2
b
5
f
b
a
9
5
8
2
6
a
2
6
3
7
e
2
0
7
2
7
b
5
6
a
f
a
0
4
3
8
2
f
f
b
9
7
7
1
2
1
b
0
9
4
1
f
1
8
4
b
3
b
6
8
6
9
0
7
6
6
4
4
c
d
c
6
a
5
b
2
d
a
a
e
8
f
0
9
4
f
c
6
4
5
f
c
5
5
e
2
9
6
e
a
d
4
1
5
b
a
b
4
e
5
3
5
3
5
f
3
1
1
e
2
2
c
6
d
0
0
1
2
3
0
5
1
0
f
a
7
3
0
a
a
5
a
7
c
3
6
2
e
2
d
1
9
8
8
e
b
9
1
8
1
4
b
d
f
5
4
5
3
b
6
c
1
6
5
8
b
f
5
b
d
b
7
5
5
c
7
b
2
d
f
2
2
9
a
d
c
0
9
9
9
f
6
2
d
7
6
4
3
3
f
5
5
e
d
3
3
7
f
2
8
e
4
2
5
b
6
4
e
5
9
6
c
8
d
6
6
9
d
c
c
3
4
0
d
7
3
7
f
d
d
6
2
a
8
8
e
7
1
2
b
7
4
7
c
c
3
9
7
c
c
a
2
2
d
4
2
3
f
9
b
e
0
8
3
9
6
f
9
7
3
f
7
b
4
5
4
0
0
d
b
f
4
3
1
f
2
0
d
4
e
c
d
0
c
c
b
f
a
d
4
1
e
f
6
4
0
3
e
d
e
1
e
f
a
1
3
e
c
8
8
8
e
1
6
0
9
e
2
9
f
5
0
a
8
0
d
f
0
9
c
c
a
f
d
5
9
a
e
7
2
0
1
2
8
3
e
b
e
1
2
5
1
f
b
1
7
0
8
c
7
6
d
2
a
4
f
6
9
9
b
8
e
6
f
5
c
1
b
7
6
3
4
7
7
9
6
4
7
8
6
0
e
b
0
3
e
5
4
c
d
8
8
0
9
f
b
3
a
f
1
d
e
d
7
e
c
8
5
0
4
7
9
2
c
2
a
6
6
0
3
2
3
e
2
b
3
c
0
f
a
d
0
1
8
5
e
8
c
0
4
7
9
3
8
5
9
8
d
b
c
5
8
3
6
9
7
4
1
4
6
a
8
6
2
c
2
1
3
2
b
a
6
c
2
f
1
0
0
a
2
d
1
4
a
6
d
e
2
7
a
3
8
2
9
d
a
0
5
f
2
a
e
8
5
3
b
d
0
c
0
d
0
4
8
a
8
e
3
5
3
c
8
f
5
3
7
1
1
1
4
6
6
6
9
2
d
b
8
f
1
a
d
e
9
b
5
8
5
2
a
e
6
1
5
a
c
3
a
c
a
3
8
a
3
e
b
2
4
d
3
9
1
d
a
4
4
8
e
7
a
d
4
a
8
9
4
4
c
1
5
9
c
f
d
4
9
d
b
6
9
5
4
4
a
c
a
3
0
6
d
c
5
a
1
d
5
1
0
7
7
c
6
c
d
a
c
a
4
0
9
7
4
8
2
a
4
0
b
d
4
a
2
8
4
1
a
d
a
0
a
b
4
c
0
0
8
b
f
8
b
0
4
2
a
5
b
a
9
d
a
6
f
1
d
2
9
1
e
6
d
f
7
1
4
f
8
5
5
5
9
d
e
d
f
e
f
0
5
3
4
f
4
7
5
0
e
a
4
f
3
7
d
a
0
1
f
8
d
c
4
3
0
8
d
a
9
c
0
5
b
0
9
1
f
a
d
6
f
f
6
f
a
7
2
3
0
5
5
b
c
3
6
2
2
e
8
b
5
d
c
0
7
0
1
7
0
6
4
a
7
2
f
3
7
a
e
2
6
c
b
6
5
a
1
9
4
d
1
6
2
b
9
3
5
7
7
3
4
3
5
c
e
7
4
c
b
6
f
b
2
3
b
4
f
b
0
8
d
5
1
b
d
4
c
a
1
f
8
2
7
9
b
3
9
b
b
f
0
b
f
c
b
1
b
8
5
1
f
b
c
c
6
4
8
0
d
0
1
2
0
7
f
a
0
f
4
6
3
0
e
