4
0
6
4
0
b
d
e
4
9
9
a
d
4
8
0
0
9
6
8
8
d
c
a
f
c
0
2
f
6
d
e
d
f
3
f
6
c
6
b
1
d
0
e
2
9
a
a
2
e
0
0
2
4
d
2
f
9
f
9
9
2
3
b
1
d
c
a
8
9
c
1
b
9
2
9
4
c
6
0
b
6
b
7
a
8
4
b
e
c
6
6
1
d
f
6
c
1
6
6
8
6
c
7
f
e
2
f
9
4
f
a
e
f
4
8
5
1
1
d
2
e
8
d
1
8
f
7
f
2
d
0
1
e
5
5
7
8
d
5
b
2
5
1
4
9
a
e
8
0
5
3
3
b
9
b
b
c
3
4
5
e
5
1
f
b
4
a
9
1
1
9
4
b
3
6
4
e
b
e
a
d
b
b
a
5
a
8
2
3
5
7
8
b
f
c
5
7
2
a
f
6
5
8
d
d
3
b
3
6
9
b
2
8
7
c
2
c
0
d
b
7
2
2
2
1
e
8
9
d
2
d
8
3
1
9
4
2
a
c
d
1
e
0
3
d
8
e
3
7
9
2
7
b
f
9
3
f
3
6
1
0
d
1
1
7
b
3
7
9
9
8
2
a
d
e
d
c
8
1
7
0
8
3
7
1
b
0
1
5
9
3
f
e
5
e
f
5
f
f
a
2
5
4
4
6
9
1
c
7
5
b
2
4
e
6
8
f
d
f
9
1
c
2
3
a
d
7
f
b
e
8
f
4
8
1
f
1
8
c
1
7
9
c
3
6
c
c
a
f
0
4
5
2
2
a
d
8
4
6
4
0
7
a
b
3
0
9
d
6
0
9
0
9
4
4
9
d
8
f
7
4
3
a
1
1
7
d
2
5
2
0
4
7
6
1
d
1
d
3
d
0
6
8
8
4
c
2
c
b
7
a
9
b
3
6
e
d
9
4
8
1
3
c
b
a
6
4
5
1
2
d
c
2
d
9
5
7
c
c
6
2
a
b
0
e
2
2
6
a
5
2
1
b
8
1
a
4
d
e
0
9
a
b
a
3
5
b
0
9
3
b
9
6
a
e
f
6
0
9
f
4
8
3
8
c
5
e
d
f
3
9
9
9
4
8
f
c
3
a
7
e
e
b
3
7
a
c
6
b
d
b
3
2
c
5
6
3
d
4
7
9
b
e
b
b
0
2
2
f
d
5
a
2
1
a
2
f
6
b
4
5
f
4
9
4
7
4
0
f
a
4
1
8
d
3
2
d
8
7
c
8
9
4
1
5
1
7
9
6
2
a
c
4
7
0
b
7
7
f
7
9
c
7
f
9
0
4
0
2
e
f
b
d
c
e
d
f
6
0
b
c
8
7
4
1
b
f
c
f
3
1
4
7
7
5
d
e
0
2
e
6
b
d
0
9
7
1
d
1
5
b
6
2
5
3
b
3
9
3
2
8
c
e
c
2
5
7
2
8
0
0
b
a
a
d
9
f
8
c
4
8
b
e
6
9
9
8
0
0
0
f
1
4
a
2
e
7
6
7
7
8
6
f
3
c
9
d
1
a
b
a
6
5
d
5
c
d
f
a
d
9
e
b
8
8
3
9
7
3
9
3
b
0
9
d
2
8
9
7
3
e
f
c
c
6
7
c
b
d
c
9
9
9
8
4
f
3
3
6
8
7
f
3
7
3
e
f
1
9
f
a
8
5
3
e
0
9
e
f
a
6
2
f
5
4
4
0
a
2
3
c
e
1
e
e
f
8
c
8
9
1
1
6
3
d
0
2
c
2
a
c
b
b
1
4
c
a
9
1
5
2
5
c
d
8
9
6
8
8
3
b
4
0
0
a
b
2
9
b
8
3
b
b
1
d
6
a
b
2
8
2
b
b
4
b
8
c
5
f
3
5
e
0
7
a
0
e
d
f
b
9
7
b
9
f
7
7
6
3
c
8
e
8
9
b
d
3
3
f
c
b
0
b
1
9
1
1
b
b
2
5
f
b
5
b
8
3
a
3
1
9
f
1
7
b
8
1
3
9
9
e
3
b
d
8
b
c
b
5
4
d
9
3
9
e
0
d
b
8
1
1
6
d
d
f
3
0
d
a
d
7
0
9
6
4
f
e
3
0
b
4
e
b
c
4
a
4
4
2
b
9
5
b
8
9
e
e
6
8
8
b
9
e
b
f
9
2
d
1
2
2
d
a
3
d
3
f
a
e
9
5
c
7
7
c
8
2
e
5
9
a
9
e
c
8
4
f
c
2
5
d
3
6
3
3
9
e
d
5
c
d
5
9
7
9
d
c
0
d
3
4
5
0
c
7
5
4
c
c
4
e
c
2
e
4
a
0
c
2
9
0
d
7
1
9
b
d
a
a
4
0
b
8
3
f
8
5
6
5
4
5
b
6
5
5
1
d
4
d
9
d
3
f
f
6
d
0
8
a
7
3
1
0
f
4
c
a
8
2
0
3
4
d
8
2
1
e
f
e
3
d
a
8
3
e
e
1
6
6
e
6
2
9
f
8
8
8
6
0
a
e
6
9
8
e
a
f
e
e
d
f
b
a
2
2
9
9
d
2
e
f
6
6
3
9
4
b
8
7
f
b
b
d
0
f
9
1
0
6
5
8
8
8
6
a
8
9
7
8
c
1
0
a
d
e
7
7
6
a
5
1
b
8
7
6
f
3
e
7
f
c
6
3
1
4
e
5
b
1
d
d
9
5
a
b
9
d
2
d
8
5
3
d
2
d
a
c
9
c
7
6
0
3
e
4
6
9
b
3
b
c
f
d
c
f
3
3
d
4
7
0
7
3
8
e
9
7
7
4
4
d
8
7
0
6
8
e
4
2
b
f
9
a
f
0
0
7
7
6
8
b
3
a
2
0
3
b
a
9
f
1
4
a
1
8
c
c
0
8
a
c
b
3
9
c
4
0
3
6
1
c
f
2
3
1
e
7
e
2
4
d
a
8
d
e
d
4
0
5
3
c
7
e
3
0
6
7
4
0
e
9
8
a
9
5
7
e
e
8
3
f
a
f
f
f
f
f
2
4
e
7
5
5
9
5
6
3
9
5
1
d
d
d
e
3
7
3
d
a
a
e
4
f
3
5
f
b
3
8
8
c
c
6
b
5
9
e
c
d
1
b
8
3
1
f
5
9
a
8
7
0
4
c
2
2
1
7
e
0
2
f
7
b
d
7
0
1
0
8
2
9
9
d
4
f
b
e
d
5
9
d
a
d
1
5
b
b
3
2
3
9
7
b
e
8
a
e
b
f
8
a
a
d
9
f
1
2
b
a
d
e
6
e
2
d
a
8
9
5
7
4
a
0
4
3
8
f
4
4
5
5
1
9
0
f
8
1
4
2
9
f
d
d
d
3
b
b
c
c
b
d
f
9
d
d
6
2
a
7
a
9
5
f
3
4
7
a
b
3
a
4
c
7
a
0
0
f
e
e
c
4
1
b
1
d
3
8
d
f
d
5
7
6
7
4
c
5
4
9
8
6
7
4
0
f
a
a
b
d
5
a
7
3
3
b
8
e
3
f
9
3
0
4
f
5
8
2
4
d
f
f
d
a
a
1
2
4
2
d
5
e
3
3
a
f
8
8
f
3
f
6
2
d
c
4
2
6
7
7
9
4
9
5
1
e
b
a
c
a
3
e
f
7
2
7
1
c
4
5
7
a
3
d
5
9
b
b
f
b
0
f
9
b
a
b
0
b
2
d
e
8
d
3
c
6
4
e
b
f
7
d
0
8
e
3
2
6
5
a
d
8
0
b
9
0
9
7
e
c
9
e
4
5
7
0
d
a
c
8
b
b
2
7
6
2
3
1
f
7
4
f
4
b
5
6
4
6
3
6
3
1
1
1
a
8
a
e
6
5
0
9
4
f
f
7
5
2
a
2
f
0
b
4
d
b
5
6
a
9
8
b
3
a
f
3
d
0
f
a
4
5
e
3
f
c
6
7
e
0
c
2
b
8
1
d
5
5
2
2
7
8
9
5
2
0
7
9
6
5
9
e
f
9
8
6
7
f
a
e
8
a
1
8
d
3
0
8
8
6
1
d
b
7
4
d
c
d
9
6
6
0
d
a
3
f
6
5
1
0
f
2
c
2
4
b
9
4
8
a
9
9
a
0
d
4
c
0
e
7
7
8
c
3
9
f
7
8
8
3
3
e
f
2
d
b
7
5
4
5
d
9
9
c
c
6
2
2
b
1
2
f
4
4
8
0
d
5
5
5
6
5
a
1
5
0
8
e
9
d
e
5
4
1
c
7
c
1
a
4
d
c
2
5
1
2
d
8
0
6
a
e
7
8
4
4
1
8
f
4
9
5
c
3
4
1
8
a
f
e
6
c
2
4
5
5
c
c
8
a
3
8
b
3
d
3
2
5
2
f
c
c
c
6
1
0
a
3
a
7
